01 02 03 04 05 06 07 08 09 0a 0b 0c 0d 0e 0f 10
01 02 03 04 05 06 07 08 09 0a 0b 0c 0d 0e 0f 10
10 0f 0e 0d 0c 0b 0a 09 08 07 06 05 04 03 02 01
01 02 03 04 05 06 07 08 09 0a 0b 0c 0d 0e 0f 10
ff fe fd fc fb fa f9 f8 f7 f6 f5 f4 f3 f2 f1 f0
ff fe fd fc fb fa f9 f8 f7 f6 f5 f4 f3 f2 f1 f0
01 03 05 07 09 0b 0d 0f 11 13 15 17 19 1b 1d 1f
20 1f 1e 1d 1c 1b 1a 19 18 17 16 15 14 13 12 11
01 82 7f 40 c0 20 e0 10 08 f8 04 fc 02 fe 01 ff
7f 80 40 c0 20 e0 10 f0 08 f8 04 fc 02 fe 01 ff
ff fe fd fc fb fa f9 f8 f7 f6 f5 f4 f3 f2 f1 f0
ff fe fd fc fb fa f9 f8 f7 f6 f5 f4 f3 f2 f1 f0
f0 f1 f2 f3 f4 f5 f6 f7 f8 f9 fa fb fc fd fe ff
80 81 82 83 84 85 86 87 88 89 8a 8b 8c 8d 8e 8f
7f 80 40 c0 20 e0 10 f0 08 f8 04 fc 02 fe 01 ff
11 12 13 14 15 16 17 18 19 1a 1b 1c 1d 1e 1f 20
